/*
 * SPDX-FileCopyrightText: Copyright 2010-2026 Arm Limited and/or its affiliates <open-source-office@arm.com>
 *
 * SPDX-License-Identifier: Apache-2.0
 *
 * Licensed under the Apache License, Version 2.0 (the License); you may
 * not use this file except in compliance with the License.
 * You may obtain a copy of the License at
 *
 * www.apache.org/licenses/LICENSE-2.0
 *
 * Unless required by applicable law or agreed to in writing, software
 * distributed under the License is distributed on an AS IS BASIS, WITHOUT
 * WARRANTIES OR CONDITIONS OF ANY KIND, either express or implied.
 * See the License for the specific language governing permissions and
 * limitations under the License.
 */

/* ----------------------------------------------------------------------
 * Project:      CMSIS NN Library
 * Title:        arm_nntables_flt.c
 * Description:  Common floating-point lookup tables used by CMSIS-NN
 *
 * $Date:        19 March 2026
 * $Revision:    V.1.0.0
 *
 * Target :  Arm(R) M-Profile Architecture
 *
 * -------------------------------------------------------------------- */

#include "arm_nnsupportfunctions.h"

/**
 * @ingroup Private
 */

/**
 * @addtogroup groupSupport
 * @{
 */

#if ARM_NN_ENABLE_F32

/*
 * Polynomial coefficients used by the float32 MVE exp approximation.
 *
 * Provenance:
 *   - matches CMSIS-DSP `exp_tab` used by `vexpq_f32()` in `arm_vec_math.h`
 *   - exposed here as `arm_nn_exp_poly_coeffs_f32` for the floating-point MVE
 *     exp helper used by CMSIS-NN
 *
 * The ordering follows the grouped evaluation scheme used by the MVE exp helper,
 * rather than a simple ascending polynomial coefficient order.
 */
const float32_t arm_nn_exp_poly_coeffs_f32[8] = {
    1.0f,
    0.0416598916054f,
    0.500000596046f,
    0.0014122662833f,
    1.00000011921f,
    0.00833693705499f,
    0.166665703058f,
    0.000195780929062f,
};

/*
 * LUT for 2^(i/256), i in [0, 256].
 * Generation formula:
 *   arm_nn_exp2_lut256_f32[i] = powf(2.0f, (float)i / 256.0f)
 */
const float32_t arm_nn_exp2_lut256_f32[257] = {
    1.000000000f, 1.002711275f, 1.005429901f, 1.008155898f, 1.010889286f, 1.013630085f, 1.016378315f, 1.019133996f,
    1.021897149f, 1.024667793f, 1.027445949f, 1.030231638f, 1.033024879f, 1.035825694f, 1.038634102f, 1.041450125f,
    1.044273782f, 1.047105096f, 1.049944086f, 1.052790773f, 1.055645178f, 1.058507323f, 1.061377227f, 1.064254913f,
    1.067140401f, 1.070033712f, 1.072934868f, 1.075843889f, 1.078760798f, 1.081685615f, 1.084618362f, 1.087559061f,
    1.090507733f, 1.093464399f, 1.096429082f, 1.099401803f, 1.102382583f, 1.105371446f, 1.108368412f, 1.111373503f,
    1.114386743f, 1.117408152f, 1.120437752f, 1.123475567f, 1.126521619f, 1.129575929f, 1.132638520f, 1.135709414f,
    1.138788635f, 1.141876204f, 1.144972144f, 1.148076479f, 1.151189230f, 1.154310421f, 1.157440074f, 1.160578212f,
    1.163724859f, 1.166880037f, 1.170043770f, 1.173216080f, 1.176396992f, 1.179586527f, 1.182784711f, 1.185991566f,
    1.189207115f, 1.192431383f, 1.195664392f, 1.198906167f, 1.202156731f, 1.205416109f, 1.208684324f, 1.211961399f,
    1.215247360f, 1.218542230f, 1.221846033f, 1.225158794f, 1.228480536f, 1.231811285f, 1.235151064f, 1.238499898f,
    1.241857812f, 1.245224830f, 1.248600977f, 1.251986278f, 1.255380757f, 1.258784440f, 1.262197350f, 1.265619515f,
    1.269050957f, 1.272491703f, 1.275941778f, 1.279401208f, 1.282870016f, 1.286348230f, 1.289835873f, 1.293332973f,
    1.296839555f, 1.300355643f, 1.303881265f, 1.307416446f, 1.310961212f, 1.314515588f, 1.318079601f, 1.321653278f,
    1.325236643f, 1.328829724f, 1.332432547f, 1.336045138f, 1.339667524f, 1.343299731f, 1.346941786f, 1.350593716f,
    1.354255547f, 1.357927306f, 1.361609021f, 1.365300717f, 1.369002423f, 1.372714165f, 1.376435971f, 1.380167867f,
    1.383909882f, 1.387662042f, 1.391424376f, 1.395196910f, 1.398979673f, 1.402772691f, 1.406575994f, 1.410389608f,
    1.414213562f, 1.418047884f, 1.421892602f, 1.425747744f, 1.429613338f, 1.433489413f, 1.437375997f, 1.441273119f,
    1.445180807f, 1.449099090f, 1.453027996f, 1.456967554f, 1.460917794f, 1.464878744f, 1.468850433f, 1.472832891f,
    1.476826146f, 1.480830228f, 1.484845166f, 1.488870990f, 1.492907728f, 1.496955412f, 1.501014070f, 1.505083732f,
    1.509164428f, 1.513256187f, 1.517359041f, 1.521473019f, 1.525598151f, 1.529734467f, 1.533881998f, 1.538040774f,
    1.542210825f, 1.546392183f, 1.550584878f, 1.554788940f, 1.559004400f, 1.563231290f, 1.567469640f, 1.571719481f,
    1.575980845f, 1.580253763f, 1.584538265f, 1.588834384f, 1.593142151f, 1.597461598f, 1.601792756f, 1.606135656f,
    1.610490332f, 1.614856814f, 1.619235135f, 1.623625327f, 1.628027422f, 1.632441452f, 1.636867450f, 1.641305448f,
    1.645755478f, 1.650217574f, 1.654691768f, 1.659178092f, 1.663676580f, 1.668187265f, 1.672710180f, 1.677245357f,
    1.681792831f, 1.686352633f, 1.690924799f, 1.695509361f, 1.700106354f, 1.704715810f, 1.709337763f, 1.713972248f,
    1.718619298f, 1.723278948f, 1.727951231f, 1.732636182f, 1.737333835f, 1.742044225f, 1.746767386f, 1.751503353f,
    1.756252160f, 1.761013843f, 1.765788436f, 1.770575974f, 1.775376493f, 1.780190027f, 1.785016611f, 1.789856282f,
    1.794709075f, 1.799575025f, 1.804454168f, 1.809346539f, 1.814252176f, 1.819171112f, 1.824103385f, 1.829049031f,
    1.834008086f, 1.838980587f, 1.843966569f, 1.848966070f, 1.853979125f, 1.859005772f, 1.864046048f, 1.869099990f,
    1.874167634f, 1.879249018f, 1.884344179f, 1.889453154f, 1.894575982f, 1.899712698f, 1.904863342f, 1.910027950f,
    1.915206561f, 1.920399213f, 1.925605944f, 1.930826791f, 1.936061793f, 1.941310990f, 1.946574418f, 1.951852116f,
    1.957144124f, 1.962450480f, 1.967771223f, 1.973106392f, 1.978456026f, 1.983820165f, 1.989198847f, 1.994592112f,
    2.000000000f,
};

/*
 * LUT for tanh(x) sampled over x in [0, 4].
 * Generation formula:
 *   arm_nn_tanh_lut256_f32[i] = tanhf(4.0f * (float)i / 256.0f)
 */
const float32_t arm_nn_tanh_lut256_f32[257] = {
    0.000000000f, 0.015623729f, 0.031239831f, 0.046840698f, 0.062418747f, 0.077966441f, 0.093476304f, 0.108940930f,
    0.124353002f, 0.139705303f, 0.154990730f, 0.170202308f, 0.185333200f, 0.200376719f, 0.215326340f, 0.230175711f,
    0.244918662f, 0.259549215f, 0.274061589f, 0.288450213f, 0.302709729f, 0.316835001f, 0.330821117f, 0.344663398f,
    0.358357398f, 0.371898910f, 0.385283966f, 0.398508842f, 0.411570056f, 0.424464368f, 0.437188785f, 0.449740552f,
    0.462117157f, 0.474316325f, 0.486336017f, 0.498174426f, 0.509829974f, 0.521301305f, 0.532587286f, 0.543686996f,
    0.554599722f, 0.565324958f, 0.575862391f, 0.586211902f, 0.596373555f, 0.606347593f, 0.616134427f, 0.625734636f,
    0.635148952f, 0.644378261f, 0.653423588f, 0.662286096f, 0.670967074f, 0.679467935f, 0.687790205f, 0.695935517f,
    0.703905604f, 0.711702294f, 0.719327501f, 0.726783220f, 0.734071520f, 0.741194537f, 0.748154470f, 0.754953575f,
    0.761594156f, 0.768078563f, 0.774409187f, 0.780588452f, 0.786618812f, 0.792502746f, 0.798242755f, 0.803841353f,
    0.809301070f, 0.814624443f, 0.819814012f, 0.824872321f, 0.829801910f, 0.834605315f, 0.839285062f, 0.843843670f,
    0.848283640f, 0.852607461f, 0.856817601f, 0.860916511f, 0.864906618f, 0.868790325f, 0.872570011f, 0.876248029f,
    0.879826700f, 0.883308319f, 0.886695149f, 0.889989423f, 0.893193340f, 0.896309067f, 0.899338735f, 0.902284443f,
    0.905148254f, 0.907932195f, 0.910638259f, 0.913268402f, 0.915824544f, 0.918308568f, 0.920722322f, 0.923067616f,
    0.925346225f, 0.927559888f, 0.929710307f, 0.931799149f, 0.933828043f, 0.935798587f, 0.937712339f, 0.939570826f,
    0.941375538f, 0.943127934f, 0.944829436f, 0.946481434f, 0.948085286f, 0.949642317f, 0.951153820f, 0.952621057f,
    0.954045260f, 0.955427629f, 0.956769334f, 0.958071518f, 0.959335293f, 0.960561744f, 0.961751926f, 0.962906871f,
    0.964027580f, 0.965115031f, 0.966170173f, 0.967193935f, 0.968187217f, 0.969150896f, 0.970085827f, 0.970992841f,
    0.971872746f, 0.972726329f, 0.973554356f, 0.974357571f, 0.975136698f, 0.975892441f, 0.976625484f, 0.977336493f,
    0.978026115f, 0.978694978f, 0.979343695f, 0.979972859f, 0.980583047f, 0.981174821f, 0.981748725f, 0.982305290f,
    0.982845029f, 0.983368443f, 0.983876017f, 0.984368222f, 0.984845517f, 0.985308347f, 0.985757143f, 0.986192324f,
    0.986614298f, 0.987023461f, 0.987420196f, 0.987804876f, 0.988177862f, 0.988539507f, 0.988890151f, 0.989230124f,
    0.989559749f, 0.989879336f, 0.990189189f, 0.990489600f, 0.990780856f, 0.991063231f, 0.991336996f, 0.991602409f,
    0.991859725f, 0.992109186f, 0.992351033f, 0.992585494f, 0.992812795f, 0.993033152f, 0.993246775f, 0.993453870f,
    0.993654634f, 0.993849260f, 0.994037935f, 0.994220838f, 0.994398146f, 0.994570029f, 0.994736652f, 0.994898175f,
    0.995054754f, 0.995206538f, 0.995353675f, 0.995496305f, 0.995634567f, 0.995768593f, 0.995898513f, 0.996024452f,
    0.996146531f, 0.996264868f, 0.996379578f, 0.996490771f, 0.996598555f, 0.996703034f, 0.996804309f, 0.996902478f,
    0.996997635f, 0.997089874f, 0.997179283f, 0.997265949f, 0.997349955f, 0.997431384f, 0.997510313f, 0.997586821f,
    0.997660979f, 0.997732862f, 0.997802538f, 0.997870075f, 0.997935538f, 0.997998991f, 0.998060496f, 0.998120112f,
    0.998177898f, 0.998233908f, 0.998288199f, 0.998340822f, 0.998391828f, 0.998441268f, 0.998489189f, 0.998535637f,
    0.998580659f, 0.998624298f, 0.998666595f, 0.998707593f, 0.998747332f, 0.998785849f, 0.998823182f, 0.998859369f,
    0.998894443f, 0.998928439f, 0.998961390f, 0.998993329f, 0.999024286f, 0.999054291f, 0.999083374f, 0.999111563f,
    0.999138886f, 0.999165368f, 0.999191037f, 0.999215916f, 0.999240031f, 0.999263404f, 0.999286059f, 0.999308017f,
    0.999329300f,
};

#endif /* ARM_NN_ENABLE_F32 */

#if ARM_NN_ENABLE_F16

/*
 * Polynomial coefficients used by the float16 MVE exp approximation.
 *
 * The float16 MVE helper evaluates the polynomial in widened float32 lanes,
 * but the coefficient table is kept distinct from the float32 one so the
 * float16 feature gate stays isolated.
 */
const float32_t arm_nn_exp_poly_coeffs_f16[8] = {
    1.0f,
    0.0416598916054f,
    0.500000596046f,
    0.0014122662833f,
    1.00000011921f,
    0.00833693705499f,
    0.166665703058f,
    0.000195780929062f,
};

/*
 * Rational tanh approximation used by float16 helpers.
 */
const float32_t arm_nn_tanh_approx_coeffs_f16[3] = {
    3.0f,
    27.0f,
    9.0f,
};

/*
 * Quantized binary16 LUT for 2^(i/256), i in [0, 256].
 */
const uint16_t arm_nn_exp2_lut256_f16[257] = {
    0x3C00u, 0x3C03u, 0x3C06u, 0x3C08u, 0x3C0Bu, 0x3C0Eu, 0x3C11u, 0x3C14u, 0x3C16u, 0x3C19u, 0x3C1Cu, 0x3C1Fu, 0x3C22u,
    0x3C25u, 0x3C28u, 0x3C2Au, 0x3C2Du, 0x3C30u, 0x3C33u, 0x3C36u, 0x3C39u, 0x3C3Cu, 0x3C3Fu, 0x3C42u, 0x3C45u, 0x3C48u,
    0x3C4Bu, 0x3C4Eu, 0x3C51u, 0x3C54u, 0x3C57u, 0x3C5Au, 0x3C5Du, 0x3C60u, 0x3C63u, 0x3C66u, 0x3C69u, 0x3C6Cu, 0x3C6Fu,
    0x3C72u, 0x3C75u, 0x3C78u, 0x3C7Bu, 0x3C7Eu, 0x3C82u, 0x3C85u, 0x3C88u, 0x3C8Bu, 0x3C8Eu, 0x3C91u, 0x3C94u, 0x3C98u,
    0x3C9Bu, 0x3C9Eu, 0x3CA1u, 0x3CA4u, 0x3CA8u, 0x3CABu, 0x3CAEu, 0x3CB1u, 0x3CB5u, 0x3CB8u, 0x3CBBu, 0x3CBEu, 0x3CC2u,
    0x3CC5u, 0x3CC8u, 0x3CCCu, 0x3CCFu, 0x3CD2u, 0x3CD6u, 0x3CD9u, 0x3CDCu, 0x3CE0u, 0x3CE3u, 0x3CE7u, 0x3CEAu, 0x3CEDu,
    0x3CF1u, 0x3CF4u, 0x3CF8u, 0x3CFBu, 0x3CFFu, 0x3D02u, 0x3D06u, 0x3D09u, 0x3D0Cu, 0x3D10u, 0x3D14u, 0x3D17u, 0x3D1Bu,
    0x3D1Eu, 0x3D22u, 0x3D25u, 0x3D29u, 0x3D2Cu, 0x3D30u, 0x3D34u, 0x3D37u, 0x3D3Bu, 0x3D3Eu, 0x3D42u, 0x3D46u, 0x3D49u,
    0x3D4Du, 0x3D51u, 0x3D54u, 0x3D58u, 0x3D5Cu, 0x3D60u, 0x3D63u, 0x3D67u, 0x3D6Bu, 0x3D6Fu, 0x3D72u, 0x3D76u, 0x3D7Au,
    0x3D7Eu, 0x3D81u, 0x3D85u, 0x3D89u, 0x3D8Du, 0x3D91u, 0x3D95u, 0x3D99u, 0x3D9Cu, 0x3DA0u, 0x3DA4u, 0x3DA8u, 0x3DACu,
    0x3DB0u, 0x3DB4u, 0x3DB8u, 0x3DBCu, 0x3DC0u, 0x3DC4u, 0x3DC8u, 0x3DCCu, 0x3DD0u, 0x3DD4u, 0x3DD8u, 0x3DDCu, 0x3DE0u,
    0x3DE4u, 0x3DE8u, 0x3DECu, 0x3DF0u, 0x3DF5u, 0x3DF9u, 0x3DFDu, 0x3E01u, 0x3E05u, 0x3E09u, 0x3E0Eu, 0x3E12u, 0x3E16u,
    0x3E1Au, 0x3E1Eu, 0x3E23u, 0x3E27u, 0x3E2Bu, 0x3E30u, 0x3E34u, 0x3E38u, 0x3E3Cu, 0x3E41u, 0x3E45u, 0x3E49u, 0x3E4Eu,
    0x3E52u, 0x3E57u, 0x3E5Bu, 0x3E5Fu, 0x3E64u, 0x3E68u, 0x3E6Du, 0x3E71u, 0x3E76u, 0x3E7Au, 0x3E7Fu, 0x3E83u, 0x3E88u,
    0x3E8Cu, 0x3E91u, 0x3E95u, 0x3E9Au, 0x3E9Eu, 0x3EA3u, 0x3EA8u, 0x3EACu, 0x3EB1u, 0x3EB5u, 0x3EBAu, 0x3EBFu, 0x3EC4u,
    0x3EC8u, 0x3ECDu, 0x3ED2u, 0x3ED6u, 0x3EDBu, 0x3EE0u, 0x3EE5u, 0x3EE9u, 0x3EEEu, 0x3EF3u, 0x3EF8u, 0x3EFDu, 0x3F02u,
    0x3F06u, 0x3F0Bu, 0x3F10u, 0x3F15u, 0x3F1Au, 0x3F1Fu, 0x3F24u, 0x3F29u, 0x3F2Eu, 0x3F33u, 0x3F38u, 0x3F3Du, 0x3F42u,
    0x3F47u, 0x3F4Cu, 0x3F51u, 0x3F56u, 0x3F5Bu, 0x3F60u, 0x3F65u, 0x3F6Au, 0x3F70u, 0x3F75u, 0x3F7Au, 0x3F7Fu, 0x3F84u,
    0x3F8Au, 0x3F8Fu, 0x3F94u, 0x3F99u, 0x3F9Fu, 0x3FA4u, 0x3FA9u, 0x3FAEu, 0x3FB4u, 0x3FB9u, 0x3FBFu, 0x3FC4u, 0x3FC9u,
    0x3FCFu, 0x3FD4u, 0x3FDAu, 0x3FDFu, 0x3FE4u, 0x3FEAu, 0x3FEFu, 0x3FF5u, 0x3FFAu, 0x4000u,
};

/*
 * Quantized binary16 LUT for tanh(x) with x in [0, 4].
 */
const uint16_t arm_nn_tanh_lut256_f16[257] = {
    0x0000u, 0x2400u, 0x27FFu, 0x29FFu, 0x2BFDu, 0x2CFDu, 0x2DFCu, 0x2EF9u, 0x2FF5u, 0x3078u, 0x30F6u, 0x3172u, 0x31EEu,
    0x3269u, 0x32E4u, 0x335Eu, 0x33D6u, 0x3427u, 0x3463u, 0x349Du, 0x34D8u, 0x3512u, 0x354Bu, 0x3584u, 0x35BCu, 0x35F3u,
    0x362Au, 0x3660u, 0x3696u, 0x36CBu, 0x36FFu, 0x3732u, 0x3765u, 0x3797u, 0x37C8u, 0x37F9u, 0x3814u, 0x382Cu, 0x3843u,
    0x3859u, 0x3870u, 0x3886u, 0x389Bu, 0x38B1u, 0x38C5u, 0x38DAu, 0x38EEu, 0x3902u, 0x3915u, 0x3928u, 0x393Au, 0x394Cu,
    0x395Eu, 0x3970u, 0x3981u, 0x3991u, 0x39A2u, 0x39B2u, 0x39C1u, 0x39D0u, 0x39DFu, 0x39EEu, 0x39FCu, 0x3A0Au, 0x3A18u,
    0x3A25u, 0x3A32u, 0x3A3Fu, 0x3A4Bu, 0x3A57u, 0x3A63u, 0x3A6Eu, 0x3A79u, 0x3A84u, 0x3A8Fu, 0x3A99u, 0x3AA3u, 0x3AADu,
    0x3AB7u, 0x3AC0u, 0x3AC9u, 0x3AD2u, 0x3ADBu, 0x3AE3u, 0x3AEBu, 0x3AF3u, 0x3AFBu, 0x3B03u, 0x3B0Au, 0x3B11u, 0x3B18u,
    0x3B1Fu, 0x3B25u, 0x3B2Cu, 0x3B32u, 0x3B38u, 0x3B3Eu, 0x3B43u, 0x3B49u, 0x3B4Eu, 0x3B54u, 0x3B59u, 0x3B5Eu, 0x3B62u,
    0x3B67u, 0x3B6Cu, 0x3B70u, 0x3B74u, 0x3B78u, 0x3B7Du, 0x3B80u, 0x3B84u, 0x3B88u, 0x3B8Cu, 0x3B8Fu, 0x3B92u, 0x3B96u,
    0x3B99u, 0x3B9Cu, 0x3B9Fu, 0x3BA2u, 0x3BA5u, 0x3BA7u, 0x3BAAu, 0x3BADu, 0x3BAFu, 0x3BB2u, 0x3BB4u, 0x3BB6u, 0x3BB9u,
    0x3BBBu, 0x3BBDu, 0x3BBFu, 0x3BC1u, 0x3BC3u, 0x3BC5u, 0x3BC6u, 0x3BC8u, 0x3BCAu, 0x3BCBu, 0x3BCDu, 0x3BCFu, 0x3BD0u,
    0x3BD2u, 0x3BD3u, 0x3BD4u, 0x3BD6u, 0x3BD7u, 0x3BD8u, 0x3BD9u, 0x3BDBu, 0x3BDCu, 0x3BDDu, 0x3BDEu, 0x3BDFu, 0x3BE0u,
    0x3BE1u, 0x3BE2u, 0x3BE3u, 0x3BE4u, 0x3BE5u, 0x3BE5u, 0x3BE6u, 0x3BE7u, 0x3BE8u, 0x3BE9u, 0x3BE9u, 0x3BEAu, 0x3BEBu,
    0x3BEBu, 0x3BECu, 0x3BEDu, 0x3BEDu, 0x3BEEu, 0x3BEEu, 0x3BEFu, 0x3BEFu, 0x3BF0u, 0x3BF0u, 0x3BF1u, 0x3BF1u, 0x3BF2u,
    0x3BF2u, 0x3BF3u, 0x3BF3u, 0x3BF3u, 0x3BF4u, 0x3BF4u, 0x3BF5u, 0x3BF5u, 0x3BF5u, 0x3BF6u, 0x3BF6u, 0x3BF6u, 0x3BF6u,
    0x3BF7u, 0x3BF7u, 0x3BF7u, 0x3BF8u, 0x3BF8u, 0x3BF8u, 0x3BF8u, 0x3BF9u, 0x3BF9u, 0x3BF9u, 0x3BF9u, 0x3BF9u, 0x3BFAu,
    0x3BFAu, 0x3BFAu, 0x3BFAu, 0x3BFAu, 0x3BFBu, 0x3BFBu, 0x3BFBu, 0x3BFBu, 0x3BFBu, 0x3BFBu, 0x3BFBu, 0x3BFCu, 0x3BFCu,
    0x3BFCu, 0x3BFCu, 0x3BFCu, 0x3BFCu, 0x3BFCu, 0x3BFCu, 0x3BFDu, 0x3BFDu, 0x3BFDu, 0x3BFDu, 0x3BFDu, 0x3BFDu, 0x3BFDu,
    0x3BFDu, 0x3BFDu, 0x3BFDu, 0x3BFEu, 0x3BFEu, 0x3BFEu, 0x3BFEu, 0x3BFEu, 0x3BFEu, 0x3BFEu, 0x3BFEu, 0x3BFEu, 0x3BFEu,
    0x3BFEu, 0x3BFEu, 0x3BFEu, 0x3BFEu, 0x3BFEu, 0x3BFEu, 0x3BFEu, 0x3BFFu, 0x3BFFu, 0x3BFFu,
};

#endif /* ARM_NN_ENABLE_F16 */

/** @} */
